00EC71
0070F6
009C8A
00419B
000541
1F5606
1EA00A
004266
1F6EC7
1FE749
1FE6C7
003E33
015BDB
1FCE43
1F0118
1F795F
04EEAF
0070D2
1ED3AA
1E5EC6
01C759
1FDD49
1FDC05
00D621
1EFF5F
13F2E5
1F816F
008109
1E15AE
1A8F28
1A262E
1F19E6
1F2CD9
1B685D
1E8C57
007179
1CF308
1EA815
1E12EB
01C673
004079
1F6F9C
1F31E6
00403A
010881
02080D
03D072
1E2FF7
1F535A
005009
1EB73A
1EAFB1
1EA93B
1EF370
1F4D30
000203
003273
00887E
1FBA63
1E87C1
0020CE
1FAE2F
000F70
1CF15A
00805D
1E6537
01B123
1EE207
033B21
1D30DD
1D47E3
1A9AE2
00901E
01B292
1D0538
1FD827
00DD20
1F85FF
000D5A
1FC1B4
1F8B8B
1CCBA6
001804
00F204
00AA75
1EC09D
1ED67D
1DD869
1F3C1E
1EAA40
1F263F
1E1B48
1EE02D
011987
01BDA3
1EE520
1FDD64
1DCCEB
1F8332
1F48EC
1ECA65
015C29
01E346
1FD064
1F2B3F
1A18C0
008537
00BC4E
180193
18B1AF
18B0A3
0027F2
1F3CCA
187F8D
000D5F
00EC9B
1FEB91
1DEFF4
003401
1EEFFC
1F81C8
1E7411
00E1DB
0127AA
1F1529
1F94EA
00B10C
00A5BE

