B7C2E
CCC3A
B13BC
BB242
D40A5
C4B58
E1FCF
00605
07231
0D666
FA2A1
06996
F07A7
F9E21
FCFC6
0F38E
F0F7D
F2E46
DBF1C
F279E
EF1B0
F4042
FF573
F70E5
08964
3A47B
F61BE
EA9A7
0BF74
F95EF
EA6A1
FC9AF
F1516
05639
FF954
EB6D1
FFC7C
65A2B
1704D
E23F7
E8682
DAFF9
FF68E
E62F8
F6BE7
DA9D4
DE551
1DAAE
0E312
0B5F6
05B4D
37AB5
0C175
E20E3
E9AB3
14796
EDD0A
182BF
F0557
F8717
F50DC
FC7F7
2758B
E71CC
F0FCC
F4CF0
E42A4
02C8A
EF1AD
EB296
14FF4
2925D
EBCC7
E2326
B52CE
BF449
D5306
EA4CF
E6FFA
DA6D1
FFFE3
D6177
0A525
D35E7
308C7
05431
0BAFF
F0994
06D80
EF10E
2EBEC
F7930
1526D
0C715
00438
03A28
040DC
F79F1
1AC46
FEDF2
9EB3E
E7763
EE9BE
FEE0C
5164D
047A6
EADC7
DB218
0B618
02773
FC091
10AEC
2760B
1EF2A
DEE2C
D8E66
F0EB1
1633D
064E5
1B8C7
F8515
03B2B
062A7
FF8B7
1A161
F55A1
F418D
F56DA

