E5462
3B42F
DFE15
002C5
0A6EB
E5551
C8E78
2F9AC
FD8CA
2C06E
F77E0
3167C
02BCD
FA334
FBDC8
EC7F9
09324
F3B9D
E1A44
D4C9D
EBDC3
FAFAA
090EA
0DD48
14155
2547A
FEDBC
0CF21
EAFFB
F1701
DF358
0F344
EE34D
07D7E
F5D8E
EA321
10FEC
F53D4
F09CA
F53D4
022EB
235EE
09539
E680C
E0A5B
CD2D6
BDF78
20AD5
185E2
05643
FFD21
F9636
0AA34
E0D07
E1C9B
FAA1F
F0E96
08268
0749A
EB4DE
0AEAC
30485
F911E
D669D
1A68C
0A0D8
DCF94
F29B4
E390F
FC997
05BD5
E882E
15D55
408CD
DC04D
149A4
FCF60
EAD0E
E39C4
FAE87
FC8FB
F2382
F8525
D5D6C
1956B
098FB
05CEB
073E0
02B16
DCBF4
06158
0471D
1B5DC
ECE1D
FF37E
EE8E7
F9D66
F9B82
02326
1103D
89E09
EE7A9
FFAE1
019E7
F52B5
1B83B
FAD9A
E9264
EB191
007AA
FA9A6
018E1
06753
08D40
E2E40
E063D
E39A9
EFB27
E939E
05B30
F1F72
023D4
0B97E
06809
1656A
21CA4
11307
EEB40

