005407
00B1D3
1F42BB
004FF0
1F9BA5
1E8A30
1E51BC
01E044
1F448B
1F95F2
1F3340
1FB7FF
1FD2E6
001815
00545A
1F3C19
1FA436
1FE746
1ED4E2
1D8398
1F1CDF
001C10
1FC389
004F01
1F25B7
01F23D
00B2EF
1E4842
1E6D51
1AB5A5
1AE203
0078D2
1EDDA6
0087FA
1F0949
1FC74C
1F795D
1F4E0B
1E6534
018EC6
0134E4
0054F8
0134B5
1F2E8B
0265B1
1E3857
1DBEB9
1D4401
1F89BB
1F0D2E
1FABD8
1F4C44
1FD51A
1DF58B
1F934A
1EF9EE
000EDB
0028B6
1EC4AF
1E8BC0
1FA37E
0081A2
1FD341
1D95A5
01CF19
1FEDA2
1FD50D
1F86B2
02D0FD
1F2C45
1DE492
1C9A66
013B18
03088B
1CFE29
1FF864
00DE41
1F018F
1F0999
1FEF0E
1FEF7F
1F9ED5
1E5A32
1F3801
1F45A4
1F3746
1EF556
03CA3F
1F3CA2
1DE147
005F3A
1ED95C
1E55DD
011C07
015C9A
1F1596
1FB98A
1E85DA
0146EC
002643
1C2D71
1E272C
1F09C4
1FD42C
01663B
019FFB
005DBE
1F2560
1AF976
1F0C87
1D73FA
1FD12F
0012AA
17737E
006ED1
01E264
1FEFD7
1EB187
1FE64B
002778
1EE08E
1F544D
1F91E0
1FB308
000415
00134A
1FF22D
00C35D

