F0996
FF432
18DE2
FEB1E
F5E5F
0ADDE
FC5ED
0296E
05552
092A7
F5120
F25F1
03F46
EB6C7
BEA17
0F37F
EC56E
F8589
E47F5
192E1
058BA
E953F
E4D43
D1FDB
141B4
F8AFC
10F79
0AA4E
00B25
0C25D
11BF5
EDA04
FBE1C
08FE0
F3FEA
E643B
0DDF8
1C236
E8CDB
15115
F5AAE
E34EE
0A484
EFCE8
F508F
185F9
F5579
D9B66
DF500
ECF6D
21379
F254A
FA19E
1918A
10909
FC65C
EA929
FE04F
07225
CCB0E
FA3AE
DDFD9
F77C8
F49E5
F894F
04995
02E9F
F4CD0
EC07C
03634
E7BB5
F988D
0A141
066B8
F3CCD
0B14A
EF8C1
049AB
10F4D
F61D5
E9E82
FE7F7
DB359
0FB90
F6F7E
F61B6
D21B0
04E4A
FA7F0
FEC86
0E5E5
04740
144A3
FFFF6
1010B
25FD7

